const unsigned char trained_tflite[] = {
  0x20, 0x00, 0x00, 0x00, 0x54, 0x46, 0x4c, 0x33, 0x00, 0x00, 0x00, 0x00,
  0x00, 0x00, 0x12, 0x00, 0x1c, 0x00, 0x04, 0x00, 0x08, 0x00, 0x0c, 0x00,
  0x10, 0x00, 0x14, 0x00, 0x00, 0x00, 0x18, 0x00, 0x12, 0x00, 0x00, 0x00,
  0x03, 0x00, 0x00, 0x00, 0x6c, 0x14, 0x00, 0x00, 0x0c, 0x0a, 0x00, 0x00,
  0xf4, 0x09, 0x00, 0x00, 0x3c, 0x00, 0x00, 0x00, 0x04, 0x00, 0x00, 0x00,
  0x01, 0x00, 0x00, 0x00, 0x0c, 0x00, 0x00, 0x00, 0x08, 0x00, 0x0c, 0x00,
  0x04, 0x00, 0x08, 0x00, 0x08, 0x00, 0x00, 0x00, 0x08, 0x00, 0x00, 0x00,
  0x0f, 0x00, 0x00, 0x00, 0x13, 0x00, 0x00, 0x00, 0x6d, 0x69, 0x6e, 0x5f,
  0x72, 0x75, 0x6e, 0x74, 0x69, 0x6d, 0x65, 0x5f, 0x76, 0x65, 0x72, 0x73,
  0x69, 0x6f, 0x6e, 0x00, 0x10, 0x00, 0x00, 0x00, 0xa8, 0x09, 0x00, 0x00,
  0x94, 0x09, 0x00, 0x00, 0xf8, 0x08, 0x00, 0x00, 0xa4, 0x08, 0x00, 0x00,
  0x50, 0x08, 0x00, 0x00, 0x2c, 0x08, 0x00, 0x00, 0xf8, 0x03, 0x00, 0x00,
  0xe4, 0x01, 0x00, 0x00, 0xd0, 0x00, 0x00, 0x00, 0x8c, 0x00, 0x00, 0x00,
  0x80, 0x00, 0x00, 0x00, 0x6c, 0x00, 0x00, 0x00, 0x58, 0x00, 0x00, 0x00,
  0x44, 0x00, 0x00, 0x00, 0x30, 0x00, 0x00, 0x00, 0x04, 0x00, 0x00, 0x00,
  0xfe, 0xf5, 0xff, 0xff, 0x04, 0x00, 0x00, 0x00, 0x10, 0x00, 0x00, 0x00,
  0x31, 0x2e, 0x35, 0x2e, 0x30, 0x00, 0x00, 0x00, 0x00, 0x00, 0x00, 0x00,
  0x00, 0x00, 0x00, 0x00, 0x00, 0x00, 0x00, 0x00, 0x00, 0x00, 0x00, 0x00,
  0x00, 0x00, 0x00, 0x00, 0xf4, 0xf5, 0xff, 0xff, 0x00, 0x00, 0x00, 0x00,
  0x00, 0x00, 0x00, 0x00, 0x00, 0x00, 0x00, 0x00, 0x04, 0xf6, 0xff, 0xff,
  0x00, 0x00, 0x00, 0x00, 0x00, 0x00, 0x00, 0x00, 0x00, 0x00, 0x00, 0x00,
  0x14, 0xf6, 0xff, 0xff, 0x00, 0x00, 0x00, 0x00, 0x00, 0x00, 0x00, 0x00,
  0x00, 0x00, 0x00, 0x00, 0x24, 0xf6, 0xff, 0xff, 0x00, 0x00, 0x00, 0x00,
  0x00, 0x00, 0x00, 0x00, 0x00, 0x00, 0x00, 0x00, 0x34, 0xf6, 0xff, 0xff,
  0x00, 0x00, 0x00, 0x00, 0x6e, 0xf6, 0xff, 0xff, 0x04, 0x00, 0x00, 0x00,
  0x30, 0x00, 0x00, 0x00, 0x43, 0x47, 0xcf, 0x23, 0xfa, 0x90, 0x2e, 0x87,
  0x65, 0xdc, 0xd9, 0x0d, 0xa9, 0xe4, 0x52, 0xe3, 0xc0, 0x20, 0x71, 0x8d,
  0xa1, 0x00, 0x09, 0xb3, 0x01, 0x47, 0xdc, 0x15, 0x11, 0x84, 0x94, 0xf3,
  0xa3, 0x8e, 0x8f, 0x21, 0x93, 0xb4, 0x81, 0x27, 0x8a, 0x26, 0x65, 0xd4,
  0xdd, 0xb4, 0x20, 0x50, 0x00, 0x00, 0x00, 0x00, 0xae, 0xf6, 0xff, 0xff,
  0x04, 0x00, 0x00, 0x00, 0x00, 0x01, 0x00, 0x00, 0x26, 0xfc, 0xf4, 0xfa,
  0x58, 0xd0, 0x37, 0x47, 0x1a, 0xbc, 0xdc, 0x0b, 0x41, 0x3f, 0x03, 0x44,
  0x4f, 0x0b, 0x2f, 0xce, 0xff, 0xd3, 0x30, 0x26, 0xe4, 0x28, 0xdd, 0xb9,
  0x27, 0x51, 0xed, 0x4d, 0xb4, 0x28, 0x22, 0xc4, 0x3c, 0x19, 0xc6, 0x07,
  0xfa, 0xc6, 0x14, 0xe6, 0x34, 0xf1, 0x07, 0x9d, 0xf2, 0x03, 0xb8, 0x34,
  0xea, 0x31, 0x64, 0x03, 0x54, 0xcc, 0x11, 0xc4, 0x33, 0x3c, 0xd8, 0x55,
  0x2b, 0xcf, 0xe1, 0x39, 0x01, 0xd0, 0x55, 0x4f, 0x21, 0x81, 0xf0, 0xb2,
  0x4d, 0x2c, 0xa0, 0x2d, 0xd1, 0x29, 0x59, 0x3e, 0x18, 0x34, 0xd5, 0x1c,
  0xb4, 0x27, 0x59, 0x45, 0x4b, 0xc7, 0x3e, 0xed, 0xf8, 0x0f, 0xb7, 0xe1,
  0xf8, 0x0b, 0x1f, 0x3e, 0xd6, 0xf5, 0xd6, 0xe5, 0x1d, 0x4f, 0xed, 0x5f,
  0x25, 0x0b, 0x4b, 0x15, 0xe2, 0x5e, 0x41, 0xbf, 0xac, 0xe6, 0xef, 0xc2,
  0xe9, 0xe4, 0xe7, 0xf4, 0x38, 0xc1, 0xff, 0x4b, 0x2f, 0xbd, 0x58, 0x30,
  0x45, 0xce, 0xbc, 0xc8, 0x18, 0x07, 0xa7, 0x2c, 0x39, 0x30, 0xc6, 0xcf,
  0xf8, 0x08, 0xca, 0xf3, 0xc2, 0xed, 0x0a, 0x20, 0xfc, 0xce, 0x02, 0xe3,
  0xc7, 0x19, 0x43, 0x3e, 0x95, 0xe2, 0x42, 0xbd, 0xb8, 0x27, 0xf5, 0x0b,
  0xa9, 0x12, 0xcf, 0x14, 0x27, 0xf8, 0xd6, 0xf3, 0xf9, 0xef, 0xd2, 0xbf,
  0xfe, 0xf5, 0xe5, 0x14, 0x3e, 0xd2, 0xd4, 0xbf, 0xf8, 0x25, 0x14, 0x0b,
  0x14, 0x5c, 0xc4, 0x0d, 0xd9, 0x0e, 0x42, 0x0b, 0x60, 0xa6, 0x03, 0x12,
  0x5b, 0xd9, 0xd2, 0x2f, 0x24, 0xf0, 0x3b, 0x22, 0x5b, 0xbb, 0x2b, 0x10,
  0x27, 0x7c, 0x06, 0x16, 0x5c, 0xed, 0x03, 0x51, 0x47, 0x07, 0x30, 0x4a,
  0x69, 0xc2, 0xc4, 0x35, 0xe2, 0x19, 0xdf, 0x5f, 0xe9, 0xd4, 0xe2, 0x29,
  0xa0, 0x31, 0x49, 0xd6, 0xe5, 0x0f, 0x12, 0xc4, 0x03, 0x1b, 0x56, 0xb5,
  0x00, 0x00, 0x00, 0x00, 0xbe, 0xf7, 0xff, 0xff, 0x04, 0x00, 0x00, 0x00,
  0x00, 0x02, 0x00, 0x00, 0xf3, 0xfb, 0xf7, 0x57, 0xe0, 0xc1, 0x3c, 0x00,
  0x61, 0xe4, 0x07, 0xce, 0x08, 0xd4, 0x4c, 0xd6, 0x28, 0x97, 0x54, 0x4d,
  0x40, 0x77, 0x48, 0x4a, 0x5d, 0xf9, 0xcc, 0x24, 0xfd, 0xf9, 0xfe, 0x2e,
  0xcf, 0x49, 0x9b, 0xd1, 0x21, 0x08, 0x48, 0x15, 0xda, 0xfc, 0xbc, 0x2d,
  0xe2, 0x16, 0x09, 0x12, 0x25, 0x7c, 0xf0, 0x2a, 0x25, 0xf2, 0xd6, 0x15,
  0x40, 0xc9, 0x1a, 0x53, 0x36, 0x31, 0xf9, 0x31, 0xd8, 0x39, 0xbb, 0xe3,
  0x2e, 0x5d, 0xec, 0xc7, 0x48, 0x1c, 0xba, 0x68, 0x0f, 0xe2, 0xd4, 0x4b,
  0xf7, 0x0a, 0xc0, 0xba, 0x12, 0x09, 0x21, 0x0f, 0x2b, 0x3d, 0x69, 0x68,
  0x36, 0x4d, 0xfd, 0xf0, 0xef, 0x1c, 0x4a, 0x1b, 0xe4, 0x3c, 0xd0, 0x60,
  0xe9, 0xe6, 0x3b, 0x39, 0x4c, 0x4a, 0x36, 0xed, 0x0c, 0x9d, 0x68, 0x50,
  0xf8, 0x3f, 0x26, 0xe6, 0x16, 0xb7, 0xf3, 0x40, 0x2f, 0xe0, 0x29, 0x3b,
  0x05, 0x19, 0x2a, 0x1b, 0x1f, 0xcc, 0xda, 0x2b, 0xba, 0xf8, 0x45, 0xeb,
  0xde, 0xe1, 0x42, 0x33, 0x4b, 0xd4, 0x4f, 0x39, 0xc9, 0x53, 0xcd, 0x6b,
  0x03, 0x28, 0x9e, 0xf0, 0xf1, 0xf7, 0xce, 0xc1, 0x3b, 0xec, 0xce, 0x2f,
  0x4e, 0x66, 0x00, 0x54, 0xd5, 0xe2, 0x9e, 0x48, 0x20, 0x3e, 0xb1, 0xe5,
  0xf7, 0x18, 0x0d, 0x10, 0x2f, 0xf1, 0xc8, 0x01, 0xca, 0x2b, 0x51, 0x2f,
  0xc0, 0xd4, 0x09, 0x50, 0x53, 0x20, 0x65, 0x53, 0x06, 0x26, 0xc2, 0x51,
  0x26, 0xfa, 0x4c, 0xbd, 0x33, 0x55, 0x0f, 0xb1, 0xe0, 0x05, 0x52, 0x2c,
  0x4c, 0xfc, 0xf6, 0x07, 0x31, 0xfc, 0x01, 0xca, 0xb3, 0x20, 0x3e, 0xd3,
  0xee, 0xde, 0x2c, 0x04, 0xd6, 0x42, 0x3c, 0x21, 0x3a, 0xb1, 0x09, 0xf3,
  0x67, 0x39, 0x5f, 0xaa, 0xa2, 0xda, 0xdd, 0x03, 0x42, 0x43, 0xe4, 0x6a,
  0x44, 0xf7, 0xd1, 0x13, 0x39, 0x5a, 0x13, 0xdb, 0xca, 0xe0, 0x34, 0xf2,
  0xcb, 0xce, 0x03, 0x43, 0xec, 0xe7, 0xcd, 0x3d, 0x2a, 0x2a, 0x2f, 0x23,
  0x14, 0xa1, 0x44, 0xb7, 0xe8, 0xcb, 0x28, 0x2b, 0xc6, 0xda, 0x81, 0xd4,
  0x25, 0xa6, 0x17, 0x22, 0xd6, 0xd3, 0xf1, 0xeb, 0x44, 0x49, 0xba, 0xd5,
  0xfa, 0x5e, 0x17, 0xd9, 0x2d, 0x1c, 0x49, 0xd6, 0xbc, 0x13, 0x2d, 0xf4,
  0x03, 0xe9, 0x0a, 0x0d, 0xc6, 0x1e, 0x32, 0x61, 0x40, 0x1c, 0xcd, 0xe8,
  0xff, 0x0f, 0x02, 0x00, 0x17, 0xdd, 0xf9, 0x13, 0x50, 0x26, 0xe3, 0x38,
  0x4a, 0x17, 0x3d, 0xdf, 0x04, 0x32, 0xd1, 0xa9, 0xe0, 0xd8, 0x3c, 0xcd,
  0x20, 0x49, 0x49, 0x47, 0xe3, 0xef, 0xc1, 0x2f, 0x0f, 0xdd, 0xe3, 0x2d,
  0xfa, 0xd5, 0x35, 0x05, 0xf2, 0x40, 0x20, 0xf6, 0xc3, 0x08, 0x06, 0x56,
  0x25, 0x36, 0x9f, 0x27, 0x32, 0xaa, 0x2f, 0x12, 0xe3, 0x27, 0xda, 0x24,
  0x14, 0x2f, 0x00, 0x19, 0x2e, 0x07, 0x99, 0xef, 0x22, 0x3c, 0x36, 0xb3,
  0x06, 0xfc, 0x75, 0xf9, 0x3f, 0xcf, 0x5d, 0x20, 0xf0, 0x67, 0xbf, 0xbb,
  0x01, 0x53, 0x0e, 0x6a, 0xdf, 0x30, 0x07, 0x1e, 0x25, 0x53, 0xda, 0x14,
  0x20, 0x2e, 0x0b, 0x50, 0xc2, 0xd1, 0xfe, 0xf8, 0xfa, 0xda, 0x54, 0xd5,
  0x51, 0x27, 0xf5, 0xdb, 0xf3, 0x91, 0x02, 0x4b, 0x2f, 0x51, 0x49, 0x24,
  0x52, 0x09, 0x16, 0xe9, 0x03, 0x13, 0x72, 0x1d, 0xfb, 0x0e, 0x13, 0x1e,
  0xcc, 0x4c, 0xdb, 0xac, 0x0e, 0x2e, 0x8a, 0x13, 0x40, 0x03, 0x10, 0xd7,
  0xdf, 0x70, 0x21, 0xbd, 0xeb, 0x26, 0x0b, 0x01, 0xcb, 0xfd, 0x50, 0xee,
  0x1e, 0xee, 0x0f, 0x1b, 0x5b, 0x37, 0x0c, 0x4c, 0xcf, 0xc7, 0xca, 0x19,
  0x11, 0x06, 0x30, 0xb0, 0x5e, 0x53, 0x71, 0xfb, 0x39, 0xa8, 0x52, 0xdc,
  0x0e, 0x4d, 0xeb, 0x44, 0x2b, 0x0e, 0xfb, 0xb3, 0xda, 0x03, 0x3f, 0xe5,
  0x00, 0x00, 0x00, 0x00, 0xce, 0xf9, 0xff, 0xff, 0x04, 0x00, 0x00, 0x00,
  0x20, 0x04, 0x00, 0x00, 0xcb, 0x39, 0x3c, 0x00, 0x16, 0xcf, 0x39, 0x02,
  0xd0, 0xc1, 0x35, 0xf3, 0x15, 0x00, 0x05, 0xe3, 0xf9, 0x19, 0x3d, 0xcd,
  0xf6, 0x47, 0xeb, 0x00, 0xe6, 0x2b, 0x14, 0xe8, 0x13, 0x30, 0xc9, 0x0f,
  0xa6, 0xf5, 0x21, 0x03, 0x3b, 0x24, 0xce, 0x2e, 0xda, 0x02, 0xfd, 0xe5,
  0xd3, 0x3c, 0xdc, 0x0f, 0x2a, 0x31, 0xe8, 0x24, 0xb3, 0xae, 0x40, 0x1c,
  0x31, 0x0b, 0xdb, 0xfc, 0x1a, 0x33, 0x29, 0xd6, 0x2c, 0xe6, 0xfa, 0xc2,
  0xf9, 0x1c, 0x2c, 0xda, 0xe9, 0xd2, 0x3f, 0x03, 0xf1, 0xcd, 0xd5, 0x34,
  0x26, 0xe8, 0x02, 0x0a, 0x0c, 0x1f, 0xa9, 0x21, 0xe3, 0x1e, 0xeb, 0x35,
  0xe0, 0xdf, 0x3a, 0x0c, 0x5c, 0xff, 0x0f, 0xa8, 0x4c, 0x02, 0x0d, 0x3c,
  0x09, 0x31, 0xdf, 0xeb, 0xcc, 0xea, 0x15, 0xfb, 0x0b, 0x0a, 0xfa, 0xee,
  0x13, 0xca, 0xa9, 0xe7, 0x3a, 0x07, 0x37, 0x4a, 0x05, 0xed, 0xd7, 0xdd,
  0xc3, 0x01, 0x1a, 0xe9, 0x4c, 0x45, 0xfb, 0x25, 0x1a, 0x0c, 0x13, 0x3a,
  0x48, 0x5e, 0x01, 0x57, 0x0f, 0xf2, 0x4c, 0x16, 0x17, 0x0e, 0xea, 0x5f,
  0x15, 0x22, 0x41, 0x33, 0xda, 0x2c, 0x41, 0x2a, 0x14, 0x24, 0x2f, 0x1e,
  0xeb, 0x6f, 0x16, 0x5f, 0x37, 0x2f, 0xff, 0x05, 0xec, 0xe6, 0x3f, 0x0c,
  0x22, 0xdc, 0x17, 0x36, 0xef, 0xf9, 0xd9, 0x03, 0xbf, 0x33, 0x1e, 0x72,
  0x38, 0x42, 0x07, 0x31, 0x27, 0xcb, 0xde, 0x13, 0xef, 0x6a, 0xd8, 0xfe,
  0xd1, 0x19, 0xf6, 0xe3, 0xf1, 0x34, 0xfc, 0x16, 0xf9, 0x0c, 0x0b, 0xc0,
  0xba, 0xe8, 0xcc, 0x22, 0xdb, 0x31, 0xef, 0xfd, 0x2f, 0x09, 0xcf, 0x36,
  0xc8, 0x42, 0x13, 0x26, 0x5d, 0x21, 0x01, 0xee, 0x2a, 0x1a, 0x13, 0x08,
  0x31, 0x38, 0x33, 0x0f, 0x4f, 0x01, 0xc7, 0x41, 0x12, 0x23, 0x00, 0x39,
  0x31, 0x0b, 0xb2, 0xcf, 0x3d, 0xda, 0x02, 0x23, 0x0b, 0xf7, 0xc9, 0xda,
  0xc7, 0xf1, 0xba, 0xd6, 0x0e, 0xe3, 0xda, 0x29, 0xea, 0x1a, 0x37, 0xe2,
  0xf4, 0xd4, 0x0b, 0x21, 0xe9, 0xc9, 0xe4, 0xe3, 0xc8, 0x13, 0xff, 0xee,
  0xc2, 0x00, 0xe7, 0x17, 0xda, 0x24, 0x35, 0x38, 0x06, 0x1f, 0xe0, 0x27,
  0xf2, 0x22, 0xfe, 0x2c, 0x20, 0xef, 0x1f, 0x21, 0x36, 0xf4, 0x03, 0x19,
  0x4a, 0x34, 0xc9, 0x15, 0x2d, 0x0f, 0x0b, 0x14, 0x4c, 0x1c, 0xb7, 0x33,
  0x17, 0xc3, 0xe8, 0x17, 0xf3, 0x2b, 0x26, 0x0c, 0x2f, 0xf2, 0xba, 0xbf,
  0xbd, 0xf4, 0xe6, 0x09, 0xeb, 0xf5, 0xb3, 0xcc, 0xc7, 0x4a, 0xe6, 0xf1,
  0xfd, 0xf0, 0x06, 0xf7, 0xef, 0x10, 0xaf, 0xd6, 0xdd, 0x2c, 0x1f, 0xe0,
  0xf7, 0xc9, 0xfe, 0xd2, 0x1a, 0x41, 0x00, 0x70, 0xe2, 0x46, 0x50, 0xfc,
  0x2f, 0x00, 0x1c, 0xf7, 0x5a, 0x28, 0x6d, 0x3e, 0xfa, 0x48, 0x45, 0x04,
  0x16, 0x2b, 0xf7, 0x16, 0xe7, 0x02, 0x1d, 0x24, 0xff, 0xfd, 0xf9, 0x2e,
  0xf8, 0x18, 0x35, 0x40, 0x18, 0xcb, 0x05, 0x0f, 0xc9, 0xf7, 0x14, 0xce,
  0xf7, 0x52, 0x31, 0x16, 0x03, 0xf0, 0xf9, 0xea, 0x35, 0x07, 0xff, 0xce,
  0xf0, 0x00, 0x26, 0x06, 0x0c, 0xec, 0xd1, 0xd2, 0x03, 0x1d, 0x16, 0x30,
  0x50, 0xfe, 0x01, 0xe6, 0xf9, 0x5c, 0x13, 0xe2, 0x1a, 0xec, 0xe1, 0xd6,
  0x1d, 0x3b, 0x09, 0xe9, 0xc6, 0x0a, 0x3c, 0x23, 0x14, 0x07, 0x06, 0xc6,
  0x33, 0xfd, 0xe7, 0x34, 0x28, 0xc9, 0xfd, 0xdd, 0xe8, 0x02, 0xcc, 0xf1,
  0x1f, 0xed, 0xf4, 0x06, 0xcd, 0xd7, 0x3f, 0xd1, 0xdf, 0x12, 0xe8, 0xe1,
  0x04, 0x1b, 0xe2, 0xef, 0xcd, 0x21, 0x17, 0xe0, 0x2e, 0x0f, 0xde, 0x08,
  0xda, 0xe8, 0x27, 0xf0, 0x53, 0x25, 0xea, 0xdc, 0xdc, 0x17, 0x46, 0xed,
  0xf7, 0x27, 0x2f, 0xd2, 0xe9, 0xf8, 0x17, 0x0b, 0xdc, 0xed, 0xd4, 0x2b,
  0x39, 0x25, 0x54, 0xe9, 0x03, 0x08, 0x2d, 0xf0, 0x35, 0x1e, 0x1b, 0xfd,
  0xd2, 0x1a, 0x33, 0x32, 0xc0, 0x1c, 0xf4, 0xfc, 0xf0, 0xf9, 0xc3, 0xd6,
  0x1d, 0x03, 0x2c, 0x35, 0x46, 0x0e, 0x0f, 0x2e, 0xcb, 0xe8, 0xe6, 0xfe,
  0x10, 0x4f, 0xd3, 0x01, 0xf1, 0x17, 0xd6, 0xce, 0xe6, 0x2e, 0x1e, 0xab,
  0xa6, 0x1c, 0x12, 0x04, 0xe2, 0x06, 0xdd, 0x02, 0xf3, 0x43, 0xfd, 0xf9,
  0x4f, 0x0a, 0xf3, 0x00, 0x51, 0xeb, 0xdf, 0xe5, 0x2b, 0x08, 0xd6, 0xe7,
  0xcc, 0xb7, 0xd0, 0x20, 0xcd, 0x05, 0x25, 0xda, 0xd2, 0xbb, 0xc3, 0xcb,
  0x00, 0xdd, 0xf4, 0xef, 0x05, 0xd3, 0xbd, 0x08, 0xd6, 0xee, 0x4c, 0x43,
  0xeb, 0xe0, 0xd4, 0xf6, 0x04, 0xda, 0x2e, 0x7f, 0x18, 0x0a, 0x16, 0xd7,
  0x1e, 0xf1, 0xff, 0x35, 0xe8, 0x37, 0xe2, 0xe9, 0x07, 0x2a, 0x57, 0x08,
  0x36, 0xf3, 0x0a, 0xee, 0xf2, 0x19, 0x1b, 0xc3, 0x0e, 0xef, 0x29, 0xf3,
  0x2f, 0x06, 0x1f, 0x30, 0x2d, 0xf4, 0x16, 0x14, 0xd9, 0xd5, 0xd2, 0x24,
  0x30, 0xc8, 0xe1, 0xd4, 0xdf, 0x27, 0x38, 0x02, 0x1e, 0x09, 0xfc, 0xfc,
  0xd2, 0xf3, 0xfa, 0xc6, 0x0f, 0xe7, 0xf8, 0xf6, 0xd3, 0x38, 0x39, 0xfa,
  0x25, 0xe4, 0x33, 0xef, 0x29, 0x3f, 0x1a, 0xd6, 0x19, 0x1e, 0xfe, 0xf0,
  0xfd, 0x01, 0xf6, 0xf2, 0xde, 0xe1, 0x28, 0x3b, 0x38, 0xf6, 0xe3, 0xc1,
  0x0d, 0xc8, 0xc6, 0x33, 0xe1, 0x22, 0x22, 0x20, 0xf8, 0xd9, 0x2d, 0xf6,
  0x1b, 0x36, 0x0b, 0x34, 0xee, 0x38, 0xfa, 0xf2, 0xe0, 0x08, 0xc7, 0x44,
  0xe0, 0x22, 0x03, 0x06, 0xcc, 0xc3, 0x08, 0xd3, 0xf9, 0xf2, 0x15, 0xd1,
  0xb5, 0x22, 0xd2, 0x0f, 0xfc, 0x0d, 0x21, 0x26, 0x08, 0xff, 0xea, 0xfd,
  0x2f, 0xf4, 0x2d, 0x25, 0xe9, 0xc6, 0x2b, 0xde, 0xf0, 0xda, 0xee, 0x22,
  0x35, 0xdc, 0xd4, 0xdd, 0x07, 0xe6, 0x3f, 0xdf, 0x30, 0x24, 0x57, 0x25,
  0x16, 0xc3, 0x3f, 0xe8, 0x51, 0xdd, 0xf3, 0xf6, 0xd7, 0x13, 0xd7, 0x09,
  0x00, 0x48, 0x25, 0x0c, 0x06, 0x29, 0x0b, 0xc9, 0xe3, 0x13, 0x02, 0x04,
  0x0d, 0xb1, 0xcc, 0xb3, 0xef, 0x18, 0x06, 0xe9, 0xf3, 0x31, 0xd9, 0xd6,
  0xf5, 0x12, 0xe9, 0x0b, 0x37, 0xbc, 0xce, 0xef, 0xf2, 0xe6, 0x01, 0x35,
  0xf8, 0x00, 0xd6, 0xe8, 0x42, 0xea, 0xcd, 0x05, 0xe3, 0xec, 0x2d, 0x26,
  0xfc, 0x21, 0xb8, 0xe7, 0x1a, 0xd5, 0x35, 0x31, 0x6b, 0x46, 0x9a, 0x12,
  0x2b, 0xb4, 0x20, 0xd9, 0x1d, 0x1b, 0xfc, 0x2c, 0xfa, 0xf6, 0x7a, 0x44,
  0x62, 0xdc, 0x19, 0x21, 0xcc, 0x0c, 0x38, 0x19, 0x39, 0x04, 0x04, 0x0e,
  0x26, 0x12, 0x2e, 0x15, 0xd8, 0x2d, 0x30, 0x0f, 0x0f, 0xf3, 0xee, 0x14,
  0x17, 0x1c, 0x32, 0xc4, 0x38, 0x14, 0xf1, 0x73, 0x36, 0x23, 0xed, 0xd0,
  0xd0, 0xf1, 0x08, 0x21, 0xf6, 0xe9, 0x3d, 0x1f, 0x49, 0xe6, 0xe2, 0xff,
  0xd9, 0x00, 0xfb, 0x0d, 0x01, 0x51, 0xe4, 0x2b, 0xe2, 0x44, 0xd4, 0x36,
  0x3a, 0x25, 0x4d, 0x5d, 0x13, 0xfd, 0x27, 0xd1, 0xe3, 0xd0, 0xe1, 0xd4,
  0xd1, 0x10, 0xef, 0xe6, 0xc0, 0xf1, 0x2d, 0x40, 0x19, 0x30, 0x04, 0x05,
  0x27, 0xf8, 0xdc, 0xbc, 0x06, 0xce, 0x20, 0xfa, 0x33, 0x2b, 0x25, 0x28,
  0xe1, 0x20, 0xf1, 0xfd, 0xfe, 0x18, 0xf5, 0xe3, 0x1e, 0x4c, 0x0c, 0x4a,
  0x27, 0xaf, 0xd2, 0xdf, 0xd9, 0x1d, 0x35, 0x1c, 0x10, 0xd3, 0x1d, 0x45,
  0x3d, 0x09, 0xeb, 0x06, 0xdd, 0xc7, 0x35, 0x5a, 0x56, 0x30, 0xab, 0x24,
  0x25, 0x09, 0x09, 0x29, 0xf1, 0xce, 0x20, 0x1a, 0x1d, 0xa9, 0x18, 0x4c,
  0x41, 0x09, 0xe0, 0xe6, 0x1b, 0xea, 0xd6, 0x24, 0x03, 0x0a, 0x41, 0x03,
  0x0c, 0xe9, 0x2d, 0x1c, 0x9c, 0xef, 0xf3, 0x3b, 0x20, 0x09, 0x1e, 0xd8,
  0x39, 0xcb, 0xe7, 0xdd, 0x1e, 0x23, 0x47, 0x1d, 0xeb, 0xdf, 0xe5, 0xec,
  0x06, 0xca, 0xec, 0x15, 0x1e, 0xeb, 0x22, 0xe6, 0xf1, 0x1a, 0xe2, 0x15,
  0x2c, 0xfb, 0xca, 0x02, 0x00, 0x00, 0x00, 0x00, 0xfe, 0xfd, 0xff, 0xff,
  0x04, 0x00, 0x00, 0x00, 0x0c, 0x00, 0x00, 0x00, 0xad, 0x00, 0x00, 0x00,
  0x31, 0xff, 0xff, 0xff, 0x81, 0xff, 0xff, 0xff, 0x00, 0x00, 0x00, 0x00,
  0x00, 0x00, 0x00, 0x00, 0x1e, 0xfe, 0xff, 0xff, 0x04, 0x00, 0x00, 0x00,
  0x40, 0x00, 0x00, 0x00, 0xb8, 0x01, 0x00, 0x00, 0x48, 0x01, 0x00, 0x00,
  0x83, 0x00, 0x00, 0x00, 0x10, 0x02, 0x00, 0x00, 0x93, 0x01, 0x00, 0x00,
  0x7c, 0xfe, 0xff, 0xff, 0x7b, 0x01, 0x00, 0x00, 0x97, 0xff, 0xff, 0xff,
  0x91, 0x01, 0x00, 0x00, 0xfb, 0xff, 0xff, 0xff, 0x92, 0x00, 0x00, 0x00,
  0x22, 0x00, 0x00, 0x00, 0xe8, 0xfe, 0xff, 0xff, 0xd0, 0x02, 0x00, 0x00,
  0xb7, 0x01, 0x00, 0x00, 0x37, 0x00, 0x00, 0x00, 0x00, 0x00, 0x00, 0x00,
  0x6e, 0xfe, 0xff, 0xff, 0x04, 0x00, 0x00, 0x00, 0x40, 0x00, 0x00, 0x00,
  0x81, 0x04, 0x00, 0x00, 0x68, 0xfe, 0xff, 0xff, 0x2b, 0xff, 0xff, 0xff,
  0xc7, 0x05, 0x00, 0x00, 0x2f, 0x00, 0x00, 0x00, 0xf0, 0xfe, 0xff, 0xff,
  0x12, 0x05, 0x00, 0x00, 0x6b, 0x04, 0x00, 0x00, 0xf7, 0xff, 0xff, 0xff,
  0xdb, 0xfd, 0xff, 0xff, 0xae, 0xfd, 0xff, 0xff, 0xa9, 0xfe, 0xff, 0xff,
  0xec, 0x03, 0x00, 0x00, 0x0d, 0x06, 0x00, 0x00, 0x18, 0xfe, 0xff, 0xff,
  0xf7, 0x04, 0x00, 0x00, 0x00, 0x00, 0x00, 0x00, 0xbe, 0xfe, 0xff, 0xff,
  0x04, 0x00, 0x00, 0x00, 0x80, 0x00, 0x00, 0x00, 0xbf, 0x07, 0x00, 0x00,
  0x6b, 0x07, 0x00, 0x00, 0xa7, 0x06, 0x00, 0x00, 0xb1, 0x07, 0x00, 0x00,
  0xdb, 0xff, 0xff, 0xff, 0x76, 0x06, 0x00, 0x00, 0x4b, 0xfd, 0xff, 0xff,
  0x24, 0x08, 0x00, 0x00, 0x23, 0x07, 0x00, 0x00, 0x75, 0xfe, 0xff, 0xff,
  0x7b, 0x09, 0x00, 0x00, 0xba, 0xff, 0xff, 0xff, 0x57, 0x07, 0x00, 0x00,
  0x3f, 0x07, 0x00, 0x00, 0x35, 0x07, 0x00, 0x00, 0xae, 0xfc, 0xff, 0xff,
  0xf1, 0xfe, 0xff, 0xff, 0x03, 0x02, 0x00, 0x00, 0xc1, 0x06, 0x00, 0x00,
  0xf3, 0x02, 0x00, 0x00, 0x48, 0x08, 0x00, 0x00, 0xbe, 0x08, 0x00, 0x00,
  0xe0, 0xfe, 0xff, 0xff, 0xcd, 0x07, 0x00, 0x00, 0xc1, 0x07, 0x00, 0x00,
  0x30, 0xfc, 0xff, 0xff, 0x5b, 0x01, 0x00, 0x00, 0xc2, 0xfe, 0xff, 0xff,
  0x6c, 0xff, 0xff, 0xff, 0x47, 0x06, 0x00, 0x00, 0x49, 0x09, 0x00, 0x00,
  0xa4, 0x00, 0x00, 0x00, 0x00, 0x00, 0x00, 0x00, 0x00, 0x00, 0x00, 0x00,
  0x00, 0x00, 0x00, 0x00, 0x24, 0xff, 0xff, 0xff, 0x00, 0x00, 0x00, 0x00,
  0x00, 0x00, 0x00, 0x00, 0x00, 0x00, 0x00, 0x00, 0x34, 0xff, 0xff, 0xff,
  0x00, 0x00, 0x00, 0x00, 0x0f, 0x00, 0x00, 0x00, 0x4d, 0x4c, 0x49, 0x52,
  0x20, 0x43, 0x6f, 0x6e, 0x76, 0x65, 0x72, 0x74, 0x65, 0x64, 0x2e, 0x00,
  0x01, 0x00, 0x00, 0x00, 0x14, 0x00, 0x00, 0x00, 0x00, 0x00, 0x0e, 0x00,
  0x18, 0x00, 0x04, 0x00, 0x08, 0x00, 0x0c, 0x00, 0x10, 0x00, 0x14, 0x00,
  0x0e, 0x00, 0x00, 0x00, 0x88, 0x01, 0x00, 0x00, 0x7c, 0x01, 0x00, 0x00,
  0x70, 0x01, 0x00, 0x00, 0x14, 0x00, 0x00, 0x00, 0x04, 0x00, 0x00, 0x00,
  0x04, 0x00, 0x00, 0x00, 0x6d, 0x61, 0x69, 0x6e, 0x00, 0x00, 0x00, 0x00,
  0x05, 0x00, 0x00, 0x00, 0x18, 0x01, 0x00, 0x00, 0xd0, 0x00, 0x00, 0x00,
  0x88, 0x00, 0x00, 0x00, 0x50, 0x00, 0x00, 0x00, 0x14, 0x00, 0x00, 0x00,
  0x00, 0x00, 0x0e, 0x00, 0x1a, 0x00, 0x08, 0x00, 0x0c, 0x00, 0x10, 0x00,
  0x07, 0x00, 0x14, 0x00, 0x0e, 0x00, 0x00, 0x00, 0x00, 0x00, 0x00, 0x09,
  0x01, 0x00, 0x00, 0x00, 0x24, 0x00, 0x00, 0x00, 0x18, 0x00, 0x00, 0x00,
  0x0c, 0x00, 0x00, 0x00, 0x00, 0x00, 0x06, 0x00, 0x08, 0x00, 0x04, 0x00,
  0x06, 0x00, 0x00, 0x00, 0x00, 0x00, 0x80, 0x3f, 0x01, 0x00, 0x00, 0x00,
  0x0d, 0x00, 0x00, 0x00, 0x01, 0x00, 0x00, 0x00, 0x0c, 0x00, 0x00, 0x00,
  0x96, 0xff, 0xff, 0xff, 0x00, 0x00, 0x00, 0x08, 0x1c, 0x00, 0x00, 0x00,
  0x10, 0x00, 0x00, 0x00, 0x08, 0x00, 0x00, 0x00, 0x04, 0x00, 0x04, 0x00,
  0x04, 0x00, 0x00, 0x00, 0x01, 0x00, 0x00, 0x00, 0x0c, 0x00, 0x00, 0x00,
  0x03, 0x00, 0x00, 0x00, 0x0b, 0x00, 0x00, 0x00, 0x08, 0x00, 0x00, 0x00,
  0x04, 0x00, 0x00, 0x00, 0xca, 0xff, 0xff, 0xff, 0x00, 0x00, 0x00, 0x08,
  0x1c, 0x00, 0x00, 0x00, 0x10, 0x00, 0x00, 0x00, 0x04, 0x00, 0x00, 0x00,
  0x76, 0xff, 0xff, 0xff, 0x00, 0x00, 0x00, 0x01, 0x01, 0x00, 0x00, 0x00,
  0x0b, 0x00, 0x00, 0x00, 0x03, 0x00, 0x00, 0x00, 0x0a, 0x00, 0x00, 0x00,
  0x07, 0x00, 0x00, 0x00, 0x03, 0x00, 0x00, 0x00, 0x00, 0x00, 0x0e, 0x00,
  0x14, 0x00, 0x00, 0x00, 0x08, 0x00, 0x0c, 0x00, 0x07, 0x00, 0x10, 0x00,
  0x0e, 0x00, 0x00, 0x00, 0x00, 0x00, 0x00, 0x08, 0x1c, 0x00, 0x00, 0x00,
  0x10, 0x00, 0x00, 0x00, 0x04, 0x00, 0x00, 0x00, 0xba, 0xff, 0xff, 0xff,
  0x00, 0x00, 0x00, 0x01, 0x01, 0x00, 0x00, 0x00, 0x0a, 0x00, 0x00, 0x00,
  0x03, 0x00, 0x00, 0x00, 0x09, 0x00, 0x00, 0x00, 0x06, 0x00, 0x00, 0x00,
  0x02, 0x00, 0x00, 0x00, 0x00, 0x00, 0x0e, 0x00, 0x16, 0x00, 0x00, 0x00,
  0x08, 0x00, 0x0c, 0x00, 0x07, 0x00, 0x10, 0x00, 0x0e, 0x00, 0x00, 0x00,
  0x00, 0x00, 0x00, 0x08, 0x24, 0x00, 0x00, 0x00, 0x18, 0x00, 0x00, 0x00,
  0x0c, 0x00, 0x00, 0x00, 0x00, 0x00, 0x06, 0x00, 0x08, 0x00, 0x07, 0x00,
  0x06, 0x00, 0x00, 0x00, 0x00, 0x00, 0x00, 0x01, 0x01, 0x00, 0x00, 0x00,
  0x09, 0x00, 0x00, 0x00, 0x03, 0x00, 0x00, 0x00, 0x00, 0x00, 0x00, 0x00,
  0x05, 0x00, 0x00, 0x00, 0x01, 0x00, 0x00, 0x00, 0x01, 0x00, 0x00, 0x00,
  0x0d, 0x00, 0x00, 0x00, 0x01, 0x00, 0x00, 0x00, 0x00, 0x00, 0x00, 0x00,
  0x0e, 0x00, 0x00, 0x00, 0x3c, 0x08, 0x00, 0x00, 0xc8, 0x07, 0x00, 0x00,
  0x70, 0x07, 0x00, 0x00, 0x1c, 0x07, 0x00, 0x00, 0xc8, 0x06, 0x00, 0x00,
  0x1c, 0x06, 0x00, 0x00, 0x68, 0x05, 0x00, 0x00, 0xb4, 0x04, 0x00, 0x00,
  0x00, 0x04, 0x00, 0x00, 0x0c, 0x03, 0x00, 0x00, 0x10, 0x02, 0x00, 0x00,
  0x14, 0x01, 0x00, 0x00, 0x60, 0x00, 0x00, 0x00, 0x04, 0x00, 0x00, 0x00,
  0x0a, 0xf8, 0xff, 0xff, 0x00, 0x00, 0x00, 0x09, 0x44, 0x00, 0x00, 0x00,
  0x0e, 0x00, 0x00, 0x00, 0x2c, 0x00, 0x00, 0x00, 0x04, 0x00, 0x00, 0x00,
  0x6c, 0xf8, 0xff, 0xff, 0x18, 0x00, 0x00, 0x00, 0x04, 0x00, 0x00, 0x00,
  0x01, 0x00, 0x00, 0x00, 0x80, 0xff, 0xff, 0xff, 0xff, 0xff, 0xff, 0xff,
  0x00, 0x00, 0x00, 0x00, 0x01, 0x00, 0x00, 0x00, 0x00, 0x00, 0x80, 0x3b,
  0x08, 0x00, 0x00, 0x00, 0x49, 0x64, 0x65, 0x6e, 0x74, 0x69, 0x74, 0x79,
  0x00, 0x00, 0x00, 0x00, 0x02, 0x00, 0x00, 0x00, 0x01, 0x00, 0x00, 0x00,
  0x03, 0x00, 0x00, 0x00, 0x62, 0xf8, 0xff, 0xff, 0x00, 0x00, 0x00, 0x09,
  0x9c, 0x00, 0x00, 0x00, 0x0d, 0x00, 0x00, 0x00, 0x44, 0x00, 0x00, 0x00,
  0x04, 0x00, 0x00, 0x00, 0x54, 0xf8, 0xff, 0xff, 0x30, 0x00, 0x00, 0x00,
  0x24, 0x00, 0x00, 0x00, 0x18, 0x00, 0x00, 0x00, 0x04, 0x00, 0x00, 0x00,
  0x01, 0x00, 0x00, 0x00, 0x58, 0x00, 0x00, 0x00, 0x00, 0x00, 0x00, 0x00,
  0x00, 0x00, 0x00, 0x00, 0x01, 0x00, 0x00, 0x00, 0x64, 0xf0, 0x0d, 0x3e,
  0x01, 0x00, 0x00, 0x00, 0x9a, 0xed, 0xad, 0x40, 0x01, 0x00, 0x00, 0x00,
  0x81, 0x49, 0xef, 0xc1, 0x4b, 0x00, 0x00, 0x00, 0x73, 0x65, 0x71, 0x75,
  0x65, 0x6e, 0x74, 0x69, 0x61, 0x6c, 0x2f, 0x79, 0x5f, 0x70, 0x72, 0x65,
  0x64, 0x2f, 0x42, 0x69, 0x61, 0x73, 0x41, 0x64, 0x64, 0x3b, 0x53, 0x74,
  0x61, 0x74, 0x65, 0x66, 0x75, 0x6c, 0x50, 0x61, 0x72, 0x74, 0x69, 0x74,
  0x69, 0x6f, 0x6e, 0x65, 0x64, 0x43, 0x61, 0x6c, 0x6c, 0x2f, 0x73, 0x65,
  0x71, 0x75, 0x65, 0x6e, 0x74, 0x69, 0x61, 0x6c, 0x2f, 0x79, 0x5f, 0x70,
  0x72, 0x65, 0x64, 0x2f, 0x42, 0x69, 0x61, 0x73, 0x41, 0x64, 0x64, 0x00,
  0x02, 0x00, 0x00, 0x00, 0x01, 0x00, 0x00, 0x00, 0x03, 0x00, 0x00, 0x00,
  0x12, 0xf9, 0xff, 0xff, 0x00, 0x00, 0x00, 0x09, 0xe4, 0x00, 0x00, 0x00,
  0x0c, 0x00, 0x00, 0x00, 0x40, 0x00, 0x00, 0x00, 0x04, 0x00, 0x00, 0x00,
  0x04, 0xf9, 0xff, 0xff, 0x2c, 0x00, 0x00, 0x00, 0x20, 0x00, 0x00, 0x00,
  0x14, 0x00, 0x00, 0x00, 0x04, 0x00, 0x00, 0x00, 0x01, 0x00, 0x00, 0x00,
  0x80, 0xff, 0xff, 0xff, 0xff, 0xff, 0xff, 0xff, 0x01, 0x00, 0x00, 0x00,
  0x5b, 0xfa, 0x9f, 0x3d, 0x01, 0x00, 0x00, 0x00, 0x61, 0x5a, 0x9f, 0x41,
  0x01, 0x00, 0x00, 0x00, 0x00, 0x00, 0x00, 0x00, 0x95, 0x00, 0x00, 0x00,
  0x73, 0x65, 0x71, 0x75, 0x65, 0x6e, 0x74, 0x69, 0x61, 0x6c, 0x2f, 0x64,
  0x65, 0x6e, 0x73, 0x65, 0x5f, 0x32, 0x2f, 0x52, 0x65, 0x6c, 0x75, 0x3b,
  0x53, 0x74, 0x61, 0x74, 0x65, 0x66, 0x75, 0x6c, 0x50, 0x61, 0x72, 0x74,
  0x69, 0x74, 0x69, 0x6f, 0x6e, 0x65, 0x64, 0x43, 0x61, 0x6c, 0x6c, 0x2f,
  0x73, 0x65, 0x71, 0x75, 0x65, 0x6e, 0x74, 0x69, 0x61, 0x6c, 0x2f, 0x64,
  0x65, 0x6e, 0x73, 0x65, 0x5f, 0x32, 0x2f, 0x52, 0x65, 0x6c, 0x75, 0x3b,
  0x73, 0x65, 0x71, 0x75, 0x65, 0x6e, 0x74, 0x69, 0x61, 0x6c, 0x2f, 0x64,
  0x65, 0x6e, 0x73, 0x65, 0x5f, 0x32, 0x2f, 0x42, 0x69, 0x61, 0x73, 0x41,
  0x64, 0x64, 0x3b, 0x53, 0x74, 0x61, 0x74, 0x65, 0x66, 0x75, 0x6c, 0x50,
  0x61, 0x72, 0x74, 0x69, 0x74, 0x69, 0x6f, 0x6e, 0x65, 0x64, 0x43, 0x61,
  0x6c, 0x6c, 0x2f, 0x73, 0x65, 0x71, 0x75, 0x65, 0x6e, 0x74, 0x69, 0x61,
  0x6c, 0x2f, 0x64, 0x65, 0x6e, 0x73, 0x65, 0x5f, 0x32, 0x2f, 0x42, 0x69,
  0x61, 0x73, 0x41, 0x64, 0x64, 0x00, 0x00, 0x00, 0x02, 0x00, 0x00, 0x00,
  0x01, 0x00, 0x00, 0x00, 0x10, 0x00, 0x00, 0x00, 0x0a, 0xfa, 0xff, 0xff,
  0x00, 0x00, 0x00, 0x09, 0xe4, 0x00, 0x00, 0x00, 0x0b, 0x00, 0x00, 0x00,
  0x40, 0x00, 0x00, 0x00, 0x04, 0x00, 0x00, 0x00, 0xfc, 0xf9, 0xff, 0xff,
  0x2c, 0x00, 0x00, 0x00, 0x20, 0x00, 0x00, 0x00, 0x14, 0x00, 0x00, 0x00,
  0x04, 0x00, 0x00, 0x00, 0x01, 0x00, 0x00, 0x00, 0x80, 0xff, 0xff, 0xff,
  0xff, 0xff, 0xff, 0xff, 0x01, 0x00, 0x00, 0x00, 0x6c, 0x73, 0x33, 0x3d,
  0x01, 0x00, 0x00, 0x00, 0xf9, 0xbf, 0x32, 0x41, 0x01, 0x00, 0x00, 0x00,
  0x00, 0x00, 0x00, 0x00, 0x95, 0x00, 0x00, 0x00, 0x73, 0x65, 0x71, 0x75,
  0x65, 0x6e, 0x74, 0x69, 0x61, 0x6c, 0x2f, 0x64, 0x65, 0x6e, 0x73, 0x65,
  0x5f, 0x31, 0x2f, 0x52, 0x65, 0x6c, 0x75, 0x3b, 0x53, 0x74, 0x61, 0x74,
  0x65, 0x66, 0x75, 0x6c, 0x50, 0x61, 0x72, 0x74, 0x69, 0x74, 0x69, 0x6f,
  0x6e, 0x65, 0x64, 0x43, 0x61, 0x6c, 0x6c, 0x2f, 0x73, 0x65, 0x71, 0x75,
  0x65, 0x6e, 0x74, 0x69, 0x61, 0x6c, 0x2f, 0x64, 0x65, 0x6e, 0x73, 0x65,
  0x5f, 0x31, 0x2f, 0x52, 0x65, 0x6c, 0x75, 0x3b, 0x73, 0x65, 0x71, 0x75,
  0x65, 0x6e, 0x74, 0x69, 0x61, 0x6c, 0x2f, 0x64, 0x65, 0x6e, 0x73, 0x65,
  0x5f, 0x31, 0x2f, 0x42, 0x69, 0x61, 0x73, 0x41, 0x64, 0x64, 0x3b, 0x53,
  0x74, 0x61, 0x74, 0x65, 0x66, 0x75, 0x6c, 0x50, 0x61, 0x72, 0x74, 0x69,
  0x74, 0x69, 0x6f, 0x6e, 0x65, 0x64, 0x43, 0x61, 0x6c, 0x6c, 0x2f, 0x73,
  0x65, 0x71, 0x75, 0x65, 0x6e, 0x74, 0x69, 0x61, 0x6c, 0x2f, 0x64, 0x65,
  0x6e, 0x73, 0x65, 0x5f, 0x31, 0x2f, 0x42, 0x69, 0x61, 0x73, 0x41, 0x64,
  0x64, 0x00, 0x00, 0x00, 0x02, 0x00, 0x00, 0x00, 0x01, 0x00, 0x00, 0x00,
  0x10, 0x00, 0x00, 0x00, 0x02, 0xfb, 0xff, 0xff, 0x00, 0x00, 0x00, 0x09,
  0xdc, 0x00, 0x00, 0x00, 0x0a, 0x00, 0x00, 0x00, 0x40, 0x00, 0x00, 0x00,
  0x04, 0x00, 0x00, 0x00, 0xf4, 0xfa, 0xff, 0xff, 0x2c, 0x00, 0x00, 0x00,
  0x20, 0x00, 0x00, 0x00, 0x14, 0x00, 0x00, 0x00, 0x04, 0x00, 0x00, 0x00,
  0x01, 0x00, 0x00, 0x00, 0x80, 0xff, 0xff, 0xff, 0xff, 0xff, 0xff, 0xff,
  0x01, 0x00, 0x00, 0x00, 0x46, 0x6f, 0xc6, 0x3c, 0x01, 0x00, 0x00, 0x00,
  0xd7, 0xa8, 0xc5, 0x40, 0x01, 0x00, 0x00, 0x00, 0x00, 0x00, 0x00, 0x00,
  0x8d, 0x00, 0x00, 0x00, 0x73, 0x65, 0x71, 0x75, 0x65, 0x6e, 0x74, 0x69,
  0x61, 0x6c, 0x2f, 0x64, 0x65, 0x6e, 0x73, 0x65, 0x2f, 0x52, 0x65, 0x6c,
  0x75, 0x3b, 0x53, 0x74, 0x61, 0x74, 0x65, 0x66, 0x75, 0x6c, 0x50, 0x61,
  0x72, 0x74, 0x69, 0x74, 0x69, 0x6f, 0x6e, 0x65, 0x64, 0x43, 0x61, 0x6c,
  0x6c, 0x2f, 0x73, 0x65, 0x71, 0x75, 0x65, 0x6e, 0x74, 0x69, 0x61, 0x6c,
  0x2f, 0x64, 0x65, 0x6e, 0x73, 0x65, 0x2f, 0x52, 0x65, 0x6c, 0x75, 0x3b,
  0x73, 0x65, 0x71, 0x75, 0x65, 0x6e, 0x74, 0x69, 0x61, 0x6c, 0x2f, 0x64,
  0x65, 0x6e, 0x73, 0x65, 0x2f, 0x42, 0x69, 0x61, 0x73, 0x41, 0x64, 0x64,
  0x3b, 0x53, 0x74, 0x61, 0x74, 0x65, 0x66, 0x75, 0x6c, 0x50, 0x61, 0x72,
  0x74, 0x69, 0x74, 0x69, 0x6f, 0x6e, 0x65, 0x64, 0x43, 0x61, 0x6c, 0x6c,
  0x2f, 0x73, 0x65, 0x71, 0x75, 0x65, 0x6e, 0x74, 0x69, 0x61, 0x6c, 0x2f,
  0x64, 0x65, 0x6e, 0x73, 0x65, 0x2f, 0x42, 0x69, 0x61, 0x73, 0x41, 0x64,
  0x64, 0x00, 0x00, 0x00, 0x02, 0x00, 0x00, 0x00, 0x01, 0x00, 0x00, 0x00,
  0x20, 0x00, 0x00, 0x00, 0xf2, 0xfb, 0xff, 0xff, 0x00, 0x00, 0x00, 0x09,
  0x9c, 0x00, 0x00, 0x00, 0x09, 0x00, 0x00, 0x00, 0x44, 0x00, 0x00, 0x00,
  0x04, 0x00, 0x00, 0x00, 0xe4, 0xfb, 0xff, 0xff, 0x30, 0x00, 0x00, 0x00,
  0x24, 0x00, 0x00, 0x00, 0x18, 0x00, 0x00, 0x00, 0x04, 0x00, 0x00, 0x00,
  0x01, 0x00, 0x00, 0x00, 0x00, 0x00, 0x00, 0x00, 0x00, 0x00, 0x00, 0x00,
  0x00, 0x00, 0x00, 0x00, 0x01, 0x00, 0x00, 0x00, 0x30, 0x9d, 0xd3, 0x3b,
  0x01, 0x00, 0x00, 0x00, 0xd5, 0xfc, 0x3a, 0x3f, 0x01, 0x00, 0x00, 0x00,
  0xf6, 0xf5, 0x51, 0xbf, 0x49, 0x00, 0x00, 0x00, 0x73, 0x65, 0x71, 0x75,
  0x65, 0x6e, 0x74, 0x69, 0x61, 0x6c, 0x2f, 0x79, 0x5f, 0x70, 0x72, 0x65,
  0x64, 0x2f, 0x4d, 0x61, 0x74, 0x4d, 0x75, 0x6c, 0x3b, 0x53, 0x74, 0x61,
  0x74, 0x65, 0x66, 0x75, 0x6c, 0x50, 0x61, 0x72, 0x74, 0x69, 0x74, 0x69,
  0x6f, 0x6e, 0x65, 0x64, 0x43, 0x61, 0x6c, 0x6c, 0x2f, 0x73, 0x65, 0x71,
  0x75, 0x65, 0x6e, 0x74, 0x69, 0x61, 0x6c, 0x2f, 0x79, 0x5f, 0x70, 0x72,
  0x65, 0x64, 0x2f, 0x4d, 0x61, 0x74, 0x4d, 0x75, 0x6c, 0x00, 0x00, 0x00,
  0x02, 0x00, 0x00, 0x00, 0x03, 0x00, 0x00, 0x00, 0x10, 0x00, 0x00, 0x00,
  0xa2, 0xfc, 0xff, 0xff, 0x00, 0x00, 0x00, 0x09, 0x9c, 0x00, 0x00, 0x00,
  0x08, 0x00, 0x00, 0x00, 0x44, 0x00, 0x00, 0x00, 0x04, 0x00, 0x00, 0x00,
  0x94, 0xfc, 0xff, 0xff, 0x30, 0x00, 0x00, 0x00, 0x24, 0x00, 0x00, 0x00,
  0x18, 0x00, 0x00, 0x00, 0x04, 0x00, 0x00, 0x00, 0x01, 0x00, 0x00, 0x00,
  0x00, 0x00, 0x00, 0x00, 0x00, 0x00, 0x00, 0x00, 0x00, 0x00, 0x00, 0x00,
  0x01, 0x00, 0x00, 0x00, 0xcb, 0x3a, 0xc9, 0x3b, 0x01, 0x00, 0x00, 0x00,
  0xb0, 0xff, 0x42, 0x3f, 0x01, 0x00, 0x00, 0x00, 0x55, 0xa8, 0x47, 0xbf,
  0x4b, 0x00, 0x00, 0x00, 0x73, 0x65, 0x71, 0x75, 0x65, 0x6e, 0x74, 0x69,
  0x61, 0x6c, 0x2f, 0x64, 0x65, 0x6e, 0x73, 0x65, 0x5f, 0x32, 0x2f, 0x4d,
  0x61, 0x74, 0x4d, 0x75, 0x6c, 0x3b, 0x53, 0x74, 0x61, 0x74, 0x65, 0x66,
  0x75, 0x6c, 0x50, 0x61, 0x72, 0x74, 0x69, 0x74, 0x69, 0x6f, 0x6e, 0x65,
  0x64, 0x43, 0x61, 0x6c, 0x6c, 0x2f, 0x73, 0x65, 0x71, 0x75, 0x65, 0x6e,
  0x74, 0x69, 0x61, 0x6c, 0x2f, 0x64, 0x65, 0x6e, 0x73, 0x65, 0x5f, 0x32,
  0x2f, 0x4d, 0x61, 0x74, 0x4d, 0x75, 0x6c, 0x00, 0x02, 0x00, 0x00, 0x00,
  0x10, 0x00, 0x00, 0x00, 0x10, 0x00, 0x00, 0x00, 0x52, 0xfd, 0xff, 0xff,
  0x00, 0x00, 0x00, 0x09, 0x9c, 0x00, 0x00, 0x00, 0x07, 0x00, 0x00, 0x00,
  0x44, 0x00, 0x00, 0x00, 0x04, 0x00, 0x00, 0x00, 0x44, 0xfd, 0xff, 0xff,
  0x30, 0x00, 0x00, 0x00, 0x24, 0x00, 0x00, 0x00, 0x18, 0x00, 0x00, 0x00,
  0x04, 0x00, 0x00, 0x00, 0x01, 0x00, 0x00, 0x00, 0x00, 0x00, 0x00, 0x00,
  0x00, 0x00, 0x00, 0x00, 0x00, 0x00, 0x00, 0x00, 0x01, 0x00, 0x00, 0x00,
  0x3f, 0x6d, 0xa1, 0x3b, 0x01, 0x00, 0x00, 0x00, 0x21, 0x6b, 0x1c, 0x3f,
  0x01, 0x00, 0x00, 0x00, 0x65, 0x2a, 0x20, 0xbf, 0x4b, 0x00, 0x00, 0x00,
  0x73, 0x65, 0x71, 0x75, 0x65, 0x6e, 0x74, 0x69, 0x61, 0x6c, 0x2f, 0x64,
  0x65, 0x6e, 0x73, 0x65, 0x5f, 0x31, 0x2f, 0x4d, 0x61, 0x74, 0x4d, 0x75,
  0x6c, 0x3b, 0x53, 0x74, 0x61, 0x74, 0x65, 0x66, 0x75, 0x6c, 0x50, 0x61,
  0x72, 0x74, 0x69, 0x74, 0x69, 0x6f, 0x6e, 0x65, 0x64, 0x43, 0x61, 0x6c,
  0x6c, 0x2f, 0x73, 0x65, 0x71, 0x75, 0x65, 0x6e, 0x74, 0x69, 0x61, 0x6c,
  0x2f, 0x64, 0x65, 0x6e, 0x73, 0x65, 0x5f, 0x31, 0x2f, 0x4d, 0x61, 0x74,
  0x4d, 0x75, 0x6c, 0x00, 0x02, 0x00, 0x00, 0x00, 0x10, 0x00, 0x00, 0x00,
  0x20, 0x00, 0x00, 0x00, 0x02, 0xfe, 0xff, 0xff, 0x00, 0x00, 0x00, 0x09,
  0x94, 0x00, 0x00, 0x00, 0x06, 0x00, 0x00, 0x00, 0x40, 0x00, 0x00, 0x00,
  0x04, 0x00, 0x00, 0x00, 0xf4, 0xfd, 0xff, 0xff, 0x2c, 0x00, 0x00, 0x00,
  0x20, 0x00, 0x00, 0x00, 0x14, 0x00, 0x00, 0x00, 0x04, 0x00, 0x00, 0x00,
  0x01, 0x00, 0x00, 0x00, 0x00, 0x00, 0x00, 0x00, 0x00, 0x00, 0x00, 0x00,
  0x01, 0x00, 0x00, 0x00, 0x28, 0x4d, 0xa0, 0x3b, 0x01, 0x00, 0x00, 0x00,
  0x8e, 0x0c, 0x1f, 0x3f, 0x01, 0x00, 0x00, 0x00, 0xaa, 0x05, 0x00, 0xbf,
  0x47, 0x00, 0x00, 0x00, 0x73, 0x65, 0x71, 0x75, 0x65, 0x6e, 0x74, 0x69,
  0x61, 0x6c, 0x2f, 0x64, 0x65, 0x6e, 0x73, 0x65, 0x2f, 0x4d, 0x61, 0x74,
  0x4d, 0x75, 0x6c, 0x3b, 0x53, 0x74, 0x61, 0x74, 0x65, 0x66, 0x75, 0x6c,
  0x50, 0x61, 0x72, 0x74, 0x69, 0x74, 0x69, 0x6f, 0x6e, 0x65, 0x64, 0x43,
  0x61, 0x6c, 0x6c, 0x2f, 0x73, 0x65, 0x71, 0x75, 0x65, 0x6e, 0x74, 0x69,
  0x61, 0x6c, 0x2f, 0x64, 0x65, 0x6e, 0x73, 0x65, 0x2f, 0x4d, 0x61, 0x74,
  0x4d, 0x75, 0x6c, 0x00, 0x02, 0x00, 0x00, 0x00, 0x20, 0x00, 0x00, 0x00,
  0x21, 0x00, 0x00, 0x00, 0xaa, 0xfe, 0xff, 0xff, 0x00, 0x00, 0x00, 0x02,
  0x40, 0x00, 0x00, 0x00, 0x05, 0x00, 0x00, 0x00, 0x28, 0x00, 0x00, 0x00,
  0x04, 0x00, 0x00, 0x00, 0x0c, 0xff, 0xff, 0xff, 0x14, 0x00, 0x00, 0x00,
  0x04, 0x00, 0x00, 0x00, 0x01, 0x00, 0x00, 0x00, 0x00, 0x00, 0x00, 0x00,
  0x00, 0x00, 0x00, 0x00, 0x01, 0x00, 0x00, 0x00, 0x94, 0x3d, 0x04, 0x3a,
  0x09, 0x00, 0x00, 0x00, 0x75, 0x6e, 0x6b, 0x6e, 0x6f, 0x77, 0x6e, 0x5f,
  0x36, 0x00, 0x00, 0x00, 0x01, 0x00, 0x00, 0x00, 0x03, 0x00, 0x00, 0x00,
  0xfa, 0xfe, 0xff, 0xff, 0x00, 0x00, 0x00, 0x02, 0x40, 0x00, 0x00, 0x00,
  0x04, 0x00, 0x00, 0x00, 0x28, 0x00, 0x00, 0x00, 0x04, 0x00, 0x00, 0x00,
  0x5c, 0xff, 0xff, 0xff, 0x14, 0x00, 0x00, 0x00, 0x04, 0x00, 0x00, 0x00,
  0x01, 0x00, 0x00, 0x00, 0x00, 0x00, 0x00, 0x00, 0x00, 0x00, 0x00, 0x00,
  0x01, 0x00, 0x00, 0x00, 0xd6, 0x0e, 0x8d, 0x39, 0x09, 0x00, 0x00, 0x00,
  0x75, 0x6e, 0x6b, 0x6e, 0x6f, 0x77, 0x6e, 0x5f, 0x34, 0x00, 0x00, 0x00,
  0x01, 0x00, 0x00, 0x00, 0x10, 0x00, 0x00, 0x00, 0x4a, 0xff, 0xff, 0xff,
  0x00, 0x00, 0x00, 0x02, 0x44, 0x00, 0x00, 0x00, 0x03, 0x00, 0x00, 0x00,
  0x2c, 0x00, 0x00, 0x00, 0x04, 0x00, 0x00, 0x00, 0xac, 0xff, 0xff, 0xff,
  0x18, 0x00, 0x00, 0x00, 0x04, 0x00, 0x00, 0x00, 0x01, 0x00, 0x00, 0x00,
  0x00, 0x00, 0x00, 0x00, 0x00, 0x00, 0x00, 0x00, 0x00, 0x00, 0x00, 0x00,
  0x01, 0x00, 0x00, 0x00, 0x52, 0x41, 0xfa, 0x38, 0x09, 0x00, 0x00, 0x00,
  0x75, 0x6e, 0x6b, 0x6e, 0x6f, 0x77, 0x6e, 0x5f, 0x32, 0x00, 0x00, 0x00,
  0x01, 0x00, 0x00, 0x00, 0x10, 0x00, 0x00, 0x00, 0x9e, 0xff, 0xff, 0xff,
  0x00, 0x00, 0x00, 0x02, 0x50, 0x00, 0x00, 0x00, 0x02, 0x00, 0x00, 0x00,
  0x38, 0x00, 0x00, 0x00, 0x10, 0x00, 0x00, 0x00, 0x0c, 0x00, 0x0c, 0x00,
  0x00, 0x00, 0x00, 0x00, 0x04, 0x00, 0x08, 0x00, 0x0c, 0x00, 0x00, 0x00,
  0x18, 0x00, 0x00, 0x00, 0x04, 0x00, 0x00, 0x00, 0x01, 0x00, 0x00, 0x00,
  0x00, 0x00, 0x00, 0x00, 0x00, 0x00, 0x00, 0x00, 0x00, 0x00, 0x00, 0x00,
  0x01, 0x00, 0x00, 0x00, 0xf8, 0xe8, 0xce, 0x38, 0x09, 0x00, 0x00, 0x00,
  0x75, 0x6e, 0x6b, 0x6e, 0x6f, 0x77, 0x6e, 0x5f, 0x30, 0x00, 0x00, 0x00,
  0x01, 0x00, 0x00, 0x00, 0x20, 0x00, 0x00, 0x00, 0x00, 0x00, 0x0e, 0x00,
  0x18, 0x00, 0x08, 0x00, 0x07, 0x00, 0x0c, 0x00, 0x10, 0x00, 0x14, 0x00,
  0x0e, 0x00, 0x00, 0x00, 0x00, 0x00, 0x00, 0x09, 0x64, 0x00, 0x00, 0x00,
  0x01, 0x00, 0x00, 0x00, 0x4c, 0x00, 0x00, 0x00, 0x10, 0x00, 0x00, 0x00,
  0x0c, 0x00, 0x14, 0x00, 0x04, 0x00, 0x08, 0x00, 0x0c, 0x00, 0x10, 0x00,
  0x0c, 0x00, 0x00, 0x00, 0x2c, 0x00, 0x00, 0x00, 0x20, 0x00, 0x00, 0x00,
  0x14, 0x00, 0x00, 0x00, 0x04, 0x00, 0x00, 0x00, 0x01, 0x00, 0x00, 0x00,
  0x80, 0xff, 0xff, 0xff, 0xff, 0xff, 0xff, 0xff, 0x01, 0x00, 0x00, 0x00,
  0x81, 0x37, 0xa5, 0x3c, 0x01, 0x00, 0x00, 0x00, 0x49, 0x92, 0xa4, 0x40,
  0x01, 0x00, 0x00, 0x00, 0x00, 0x00, 0x00, 0x00, 0x0b, 0x00, 0x00, 0x00,
  0x64, 0x65, 0x6e, 0x73, 0x65, 0x5f, 0x69, 0x6e, 0x70, 0x75, 0x74, 0x00,
  0x02, 0x00, 0x00, 0x00, 0x01, 0x00, 0x00, 0x00, 0x21, 0x00, 0x00, 0x00,
  0x02, 0x00, 0x00, 0x00, 0x2c, 0x00, 0x00, 0x00, 0x10, 0x00, 0x00, 0x00,
  0x00, 0x00, 0x0a, 0x00, 0x0e, 0x00, 0x07, 0x00, 0x00, 0x00, 0x08, 0x00,
  0x0a, 0x00, 0x00, 0x00, 0x00, 0x00, 0x00, 0x19, 0x02, 0x00, 0x00, 0x00,
  0x00, 0x00, 0x0a, 0x00, 0x0c, 0x00, 0x07, 0x00, 0x00, 0x00, 0x08, 0x00,
  0x0a, 0x00, 0x00, 0x00, 0x00, 0x00, 0x00, 0x09, 0x04, 0x00, 0x00, 0x00
};
unsigned int trained_tflite_len = 5328;
